{
  "version": "1.0",
  "truncation": {
    "direction": "Right",
    "max_length": 63,
    "strategy": "LongestFirst",
    "stride": 0
  },
  "padding": null,
  "added_tokens": [
    {
      "id": 0,
      "content": "[PAD]",
      "single_word": false,
      "lstrip": false,
      "rstrip": false,
      "normalized": false,
      "special": true
    },
    {
      "id": 1,
      "content": "[UNK]",
      "single_word": false,
      "lstrip": false,
      "rstrip": false,
      "normalized": false,
      "special": true
    },
    {
      "id": 2,
      "content": "[BOS]",
      "single_word": false,
      "lstrip": false,
      "rstrip": false,
      "normalized": false,
      "special": true
    },
    {
      "id": 3,
      "content": "[EOS]",
      "single_word": false,
      "lstrip": false,
      "rstrip": false,
      "normalized": false,
      "special": true
    }
  ],
  "normalizer": null,
  "pre_tokenizer": {
    "type": "Whitespace"
  },
  "post_processor": null,
  "decoder": null,
  "model": {
    "type": "BPE",
    "dropout": null,
    "unk_token": "[UNK]",
    "continuing_subword_prefix": null,
    "end_of_word_suffix": null,
    "fuse_unk": false,
    "byte_fallback": false,
    "ignore_merges": false,
    "vocab": {
      "[PAD]": 0,
      "[UNK]": 1,
      "[BOS]": 2,
      "[EOS]": 3,
      "4": 4,
      "8": 5,
      "、": 6,
      "。": 7,
      "一": 8,
      "不": 9,
      "个": 10,
      "中": 11,
      "为": 12,
      "久": 13,
      "么": 14,
      "买": 15,
      "了": 16,
      "于": 17,
      "交": 18,
      "人": 19,
      "什": 20,
      "仍": 21,
      "仓": 22,
      "付": 23,
      "代": 24,
      "以": 25,
      "件": 26,
      "优": 27,
      "会": 28,
      "传": 29,
      "但": 30,
      "你": 31,
      "供": 32,
      "保": 33,
      "信": 34,
      "修": 35,
      "候": 36,
      "先": 37,
      "公": 38,
      "具": 39,
      "再": 40,
      "决": 41,
      "准": 42,
      "出": 43,
      "则": 44,
      "到": 45,
      "券": 46,
      "办": 47,
      "动": 48,
      "助": 49,
      "包": 50,
      "单": 51,
      "及": 52,
      "发": 53,
      "取": 54,
      "变": 55,
      "可": 56,
      "号": 57,
      "司": 58,
      "合": 59,
      "后": 60,
      "吗": 61,
      "否": 62,
      "告": 63,
      "和": 64,
      "品": 65,
      "哪": 66,
      "售": 67,
      "商": 68,
      "回": 69,
      "在": 70,
      "地": 71,
      "址": 72,
      "型": 73,
      "填": 74,
      "处": 75,
      "多": 76,
      "头": 77,
      "好": 78,
      "如": 79,
      "完": 80,
      "实": 81,
      "审": 82,
      "客": 83,
      "寄": 84,
      "小": 85,
      "少": 86,
      "尚": 87,
      "尝": 88,
      "尽": 89,
      "已": 90,
      "帮": 91,
      "常": 92,
      "并": 93,
      "库": 94,
      "度": 95,
      "延": 96,
      "开": 97,
      "式": 98,
      "录": 99,
      "待": 100,
      "快": 101,
      "态": 102,
      "怎": 103,
      "息": 104,
      "惠": 105,
      "成": 106,
      "我": 107,
      "或": 108,
      "户": 109,
      "手": 110,
      "执": 111,
      "找": 112,
      "把": 113,
      "抬": 114,
      "拍": 115,
      "按": 116,
      "据": 117,
      "接": 118,
      "提": 119,
      "揽": 120,
      "支": 121,
      "收": 122,
      "改": 123,
      "数": 124,
      "新": 125,
      "方": 126,
      "时": 127,
      "是": 128,
      "显": 129,
      "更": 130,
      "有": 131,
      "服": 132,
      "未": 133,
      "条": 134,
      "果": 135,
      "柜": 136,
      "查": 137,
      "核": 138,
      "根": 139,
      "款": 140,
      "正": 141,
      "步": 142,
      "没": 143,
      "洁": 144,
      "活": 145,
      "流": 146,
      "消": 147,
      "渠": 148,
      "点": 149,
      "照": 150,
      "片": 151,
      "物": 152,
      "状": 153,
      "现": 154,
      "理": 155,
      "用": 156,
      "申": 157,
      "电": 158,
      "留": 159,
      "登": 160,
      "的": 161,
      "直": 162,
      "看": 163,
      "确": 164,
      "示": 165,
      "票": 166,
      "程": 167,
      "税": 168,
      "符": 169,
      "答": 170,
      "签": 171,
      "简": 172,
      "类": 173,
      "系": 174,
      "经": 175,
      "给": 176,
      "统": 177,
      "继": 178,
      "续": 179,
      "联": 180,
      "能": 181,
      "自": 182,
      "般": 183,
      "行": 184,
      "补": 185,
      "表": 186,
      "装": 187,
      "裹": 188,
      "要": 189,
      "规": 190,
      "订": 191,
      "认": 192,
      "记": 193,
      "诉": 194,
      "试": 195,
      "询": 196,
      "请": 197,
      "账": 198,
      "货": 199,
      "起": 200,
      "超": 201,
      "转": 202,
      "输": 203,
      "过": 204,
      "运": 205,
      "还": 206,
      "这": 207,
      "进": 208,
      "迟": 209,
      "退": 210,
      "递": 211,
      "通": 212,
      "道": 213,
      "里": 214,
      "重": 215,
      "量": 216,
      "错": 217,
      "问": 218,
      "间": 219,
      "需": 220,
      "题": 221,
      "，": 222,
      "：": 223,
      "；": 224,
      "？": 225,
      "助手": 226,
      "订单": 227,
      "一个": 228,
      "你是": 229,
      "准确": 230,
      "可执": 231,
      "商客": 232,
      "回答": 233,
      "服助手": 234,
      "用户": 235,
      "电商客": 236,
      "简洁": 237,
      "系统": 238,
      "一个电商客": 239,
      "你是一个电商客": 240,
      "可执行": 241,
      "回答准确": 242,
      "你是一个电商客服助手": 243,
      "可以": 244,
      "帮你": 245,
      "订单号": 246,
      "如果": 247,
      "是否": 248,
      "请先": 249,
      "发票": 250,
      "怎么": 251,
      "我帮你": 252,
      "核实": 253,
      "确认": 254,
      "怎么办": 255,
      "已经": 256,
      "抬头": 257,
      "供订单号": 258,
      "出库": 259,
      "发给": 260,
      "完成": 261,
      "快递": 262,
      "我可以": 263,
      "提供订单号": 264,
      "申请": 265,
      "签收": 266,
      "退款": 267,
      "发给我": 268,
      "修改": 269,
      "告诉": 270,
      "和税": 271,
      "商品": 272,
      "处理": 273,
      "把订单号": 274,
      "揽件": 275,
      "物流": 276,
      "请提供订单号": 277,
      "通常": 278,
      "是否已经": 279,
      "请先核实": 280,
      "发票抬头": 281,
      "和税号": 282,
      "仓库": 283,
      "信息": 284,
      "地址": 285,
      "待揽": 286,
      "我会": 287,
      "提交": 288,
      "查询": 289,
      "补开": 290,
      "货地址": 291,
      "还未": 292,
      "退回": 293,
      "需要": 294,
      "如果订单": 295,
      "我帮你核实": 296,
      "我帮你确认": 297,
      "完成揽件": 298,
      "把订单号发给我": 299,
      "是否已经出库": 300,
      "发票抬头和税号": 301,
      "仓库是否已经出库": 302,
      "待揽收": 303,
      "48": 304,
      "一直": 305,
      "一般": 306,
      "为你": 307,
      "什么": 308,
      "优惠": 309,
      "会退回": 310,
      "保留": 311,
      "公司": 312,
      "再确认": 313,
      "到账": 314,
      "发现": 315,
      "发货": 316,
      "后发现": 317,
      "小时": 318,
      "少件": 319,
      "尚未": 320,
      "开票": 321,
      "我订单号": 322,
      "显示": 323,
      "核查": 324,
      "没有": 325,
      "流程": 326,
      "直接": 327,
      "继续": 328,
      "超过": 329,
      "还能": 330,
      "退货地址": 331,
      "错了": 332,
      "问题": 333,
      "订单待揽收": 334,
      "可以补开": 335,
      "帮你查询": 336,
      "如果已": 337,
      "如果需要": 338,
      "是否完成揽件": 339,
      "发票吗": 340,
      "已经开": 341,
      "快递是否完成揽件": 342,
      "我可以帮你": 343,
      "我可以继续": 344,
      "申请退款": 345,
      "签收后发现": 346,
      "告诉你": 347,
      "告诉我订单号": 348,
      "请先核实仓库是否已经出库": 349,
      "如果订单还未": 350,
      "我帮你核实是否": 351,
      "优惠券": 352,
      "保留商品": 353,
      "再确认快递是否完成揽件": 354,
      "小时怎么办": 355,
      "订单待揽收超过": 356,
      "我可以继续帮你查询": 357,
      "一步": 358,
      "不及": 359,
      "不能": 360,
      "不要": 361,
      "中转": 362,
      "为什么": 363,
      "久能": 364,
      "买错了": 365,
      "于支": 366,
      "仍未": 367,
      "付渠": 368,
      "代收": 369,
      "会按": 370,
      "传不及": 371,
      "但我": 372,
      "你可以": 373,
      "候能": 374,
      "先帮你": 375,
      "先把订单号发给我": 376,
      "具完成": 377,
      "决于支": 378,
      "则处理": 379,
      "动规": 380,
      "包装": 381,
      "包裹": 382,
      "发起": 383,
      "取消": 384,
      "取决于支": 385,
      "变更": 386,
      "可能": 387,
      "合补开": 388,
      "后多": 389,
      "后尽": 390,
      "后处理": 391,
      "和签收": 392,
      "和流程": 393,
      "和问题": 394,
      "和优惠券": 395,
      "和代收": 396,
      "和包装": 397,
      "哪里": 398,
      "售后处理": 399,
      "回传不及": 400,
      "在信息": 401,
      "在哪里": 402,
      "填错了": 403,
      "审核": 404,
      "寄回": 405,
      "尝试": 406,
      "已签收": 407,
      "并拍": 408,
      "并把订单号": 409,
      "延迟": 410,
      "开好": 411,
      "开发票吗": 412,
      "快处理": 413,
      "态告诉你": 414,
      "成公司": 415,
      "我的": 416,
      "我先帮你": 417,
      "或物流": 418,
      "找到": 419,
      "把公司": 420,
      "据订单": 421,
      "收到": 422,
      "收货地址": 423,
      "改成公司": 424,
      "数量": 425,
      "方式": 426,
      "时间": 427,
      "时候能": 428,
      "是快递": 429,
      "更新": 430,
      "有问题": 431,
      "条件": 432,
      "柜和代收": 433,
      "根据订单": 434,
      "正确": 435,
      "活动规": 436,
      "点信息": 437,
      "照片": 438,
      "照保留商品": 439,
      "状态告诉你": 440,
      "登记": 441,
      "的退货地址": 442,
      "示快递": 443,
      "票了": 444,
      "符合补开": 445,
      "类型": 446,
      "系物流": 447,
      "联系物流": 448,
      "自行": 449,
      "表示快递": 450,
      "记录": 451,
      "请把订单号发给我": 452,
      "请告诉我订单号": 453,
      "请把公司": 454,
      "账户": 455,
      "货退款": 456,
      "输中转": 457,
      "过票了": 458,
      "运输中转": 459,
      "这通常": 460,
      "这可能": 461,
      "进度": 462,
      "进一步": 463,
      "退货退款": 464,
      "通过": 465,
      "重开": 466,
      "订单一直": 467,
      "订单显示": 468,
      "订单取消": 469,
      "可以修改": 470,
      "可以直接": 471,
      "可以开发票吗": 472,
      "可以改成公司": 473,
      "如果发票": 474,
      "如果仍未": 475,
      "是否符合补开": 476,
      "请先提供订单号": 477,
      "请先申请": 478,
      "请先告诉我订单号": 479,
      "请先保留商品": 480,
      "请先不要": 481,
      "发票什么": 482,
      "怎么申请退款": 483,
      "我帮你提交": 484,
      "我帮你进一步": 485,
      "确认完成": 486,
      "确认退款": 487,
      "抬头吗": 488,
      "抬头和税号": 489,
      "快递柜和代收": 490,
      "我可以为你": 491,
      "申请提交": 492,
      "签收人": 493,
      "退款申请提交": 494,
      "修改抬头吗": 495,
      "商品买错了": 496,
      "商品有问题": 497,
      "物流一直": 498,
      "物流核查": 499,
      "通常不能": 500,
      "通常会按": 501,
      "通常取决于支": 502,
      "是否已经审核": 503,
      "请先核实包裹": 504,
      "请先核实签收人": 505,
      "发票抬头可以改成公司": 506,
      "我会为你": 507,
      "我会告诉你": 508,
      "我会根据订单": 509,
      "提交开票": 510,
      "还未完成揽件": 511,
      "退回流程": 512,
      "需要联系物流": 513,
      "如果订单尚未": 514,
      "我帮你核实进度": 515,
      "我帮你确认仓库是否已经出库": 516,
      "我帮你确认售后处理": 517,
      "我帮你确认是否符合补开": 518,
      "待揽收怎么办": 519,
      "一般可以补开": 520,
      "一般在信息": 521,
      "会退回吗": 522,
      "会退回账户": 523,
      "到账时间": 524,
      "少件怎么办": 525,
      "少件核查": 526,
      "尚未揽件": 527,
      "显示待揽收怎么办": 528,
      "没有收到": 529,
      "没有更新": 530,
      "直接修改": 531,
      "还能重开": 532,
      "还能修改抬头吗": 533,
      "退货地址在哪里": 534,
      "可以补开发票吗": 535,
      "如果已出库": 536,
      "如果已发货": 537,
      "已经开具完成": 538,
      "已经开过票了": 539,
      "我可以帮你尝试": 540,
      "我可以帮你登记": 541,
      "签收后发现商品有问题": 542,
      "签收后发现少件怎么办": 543,
      "如果订单还未出库": 544,
      "如果订单还未发货": 545,
      "我帮你核实是否会退回账户": 546,
      "我帮你核实是否还能重开": 547,
      "优惠券会退回吗": 548,
      "为什么物流一直": 549,
      "久能到账": 550,
      "付渠道": 551,
      "但我没有收到": 552,
      "你可以先把订单号发给我": 553,
      "发起物流核查": 554,
      "后多久能到账": 555,
      "后尽快处理": 556,
      "和签收记录": 557,
      "和问题照片": 558,
      "和优惠券类型": 559,
      "回传不及时": 560,
      "填错了怎么办": 561,
      "已签收但我没有收到": 562,
      "并拍照保留商品": 563,
      "并把订单号和问题照片": 564,
      "我的订单一直": 565,
      "我先帮你确认退款": 566,
      "或物流回传不及时": 567,
      "收货地址填错了怎么办": 568,
      "数量和签收记录": 569,
      "时候能开好": 570,
      "是快递尚未揽件": 571,
      "正确的退货地址": 572,
      "活动规则处理": 573,
      "状态告诉你正确的退货地址": 574,
      "自行寄回": 575,
      "表示快递还未完成揽件": 576,
      "请告诉我订单号和优惠券类型": 577,
      "请把公司抬头和税号": 578,
      "运输中转延迟": 579,
      "这通常表示快递还未完成揽件": 580,
      "这可能是快递尚未揽件": 581,
      "订单显示已签收但我没有收到": 582,
      "订单取消后": 583,
      "可以直接申请退款": 584,
      "如果发票已经开具完成": 585,
      "如果仍未找到": 586,
      "请先申请退货退款": 587,
      "请先保留商品和包装": 588,
      "请先不要自行寄回": 589,
      "发票什么时候能开好": 590,
      "我帮你提交变更": 591,
      "我帮你进一步查询": 592,
      "确认完成后尽快处理": 593,
      "快递柜和代收点信息": 594,
      "我可以为你发起物流核查": 595,
      "退款申请提交后多久能到账": 596,
      "通常不能直接修改": 597,
      "通常会按活动规则处理": 598,
      "通常取决于支付渠道": 599,
      "是否已经审核通过": 600,
      "请先核实包裹数量和签收记录": 601,
      "发票抬头可以改成公司吗": 602,
      "我会为你提交开票": 603,
      "我会告诉你退回流程": 604,
      "我会根据订单状态告诉你正确的退货地址": 605,
      "需要联系物流处理": 606,
      "如果订单尚未开票": 607,
      "我帮你确认售后处理方式": 608,
      "我帮你确认是否符合补开条件": 609,
      "一般在信息确认完成后尽快处理": 610,
      "到账时间通常取决于支付渠道": 611,
      "退货地址在哪里看": 612,
      "我可以帮你尝试修改": 613,
      "我可以帮你登记少件核查": 614,
      "签收后发现商品有问题怎么办": 615,
      "为什么物流一直没有更新": 616,
      "并拍照保留商品信息": 617,
      "并把订单号和问题照片发给我": 618,
      "我的订单一直显示待揽收怎么办": 619,
      "我先帮你确认退款是否已经审核通过": 620,
      "请把公司抬头和税号发给我": 621,
      "我会为你提交开票申请": 622,
      "我会根据订单状态告诉你正确的退货地址和流程": 623
    },
    "merges": [
      [
        "助",
        "手"
      ],
      [
        "订",
        "单"
      ],
      [
        "一",
        "个"
      ],
      [
        "你",
        "是"
      ],
      [
        "准",
        "确"
      ],
      [
        "可",
        "执"
      ],
      [
        "商",
        "客"
      ],
      [
        "回",
        "答"
      ],
      [
        "服",
        "助手"
      ],
      [
        "用",
        "户"
      ],
      [
        "电",
        "商客"
      ],
      [
        "简",
        "洁"
      ],
      [
        "系",
        "统"
      ],
      [
        "一个",
        "电商客"
      ],
      [
        "你是",
        "一个电商客"
      ],
      [
        "可执",
        "行"
      ],
      [
        "回答",
        "准确"
      ],
      [
        "你是一个电商客",
        "服助手"
      ],
      [
        "可",
        "以"
      ],
      [
        "帮",
        "你"
      ],
      [
        "订单",
        "号"
      ],
      [
        "如",
        "果"
      ],
      [
        "是",
        "否"
      ],
      [
        "请",
        "先"
      ],
      [
        "发",
        "票"
      ],
      [
        "怎",
        "么"
      ],
      [
        "我",
        "帮你"
      ],
      [
        "核",
        "实"
      ],
      [
        "确",
        "认"
      ],
      [
        "怎么",
        "办"
      ],
      [
        "已",
        "经"
      ],
      [
        "抬",
        "头"
      ],
      [
        "供",
        "订单号"
      ],
      [
        "出",
        "库"
      ],
      [
        "发",
        "给"
      ],
      [
        "完",
        "成"
      ],
      [
        "快",
        "递"
      ],
      [
        "我",
        "可以"
      ],
      [
        "提",
        "供订单号"
      ],
      [
        "申",
        "请"
      ],
      [
        "签",
        "收"
      ],
      [
        "退",
        "款"
      ],
      [
        "发给",
        "我"
      ],
      [
        "修",
        "改"
      ],
      [
        "告",
        "诉"
      ],
      [
        "和",
        "税"
      ],
      [
        "商",
        "品"
      ],
      [
        "处",
        "理"
      ],
      [
        "把",
        "订单号"
      ],
      [
        "揽",
        "件"
      ],
      [
        "物",
        "流"
      ],
      [
        "请",
        "提供订单号"
      ],
      [
        "通",
        "常"
      ],
      [
        "是否",
        "已经"
      ],
      [
        "请先",
        "核实"
      ],
      [
        "发票",
        "抬头"
      ],
      [
        "和税",
        "号"
      ],
      [
        "仓",
        "库"
      ],
      [
        "信",
        "息"
      ],
      [
        "地",
        "址"
      ],
      [
        "待",
        "揽"
      ],
      [
        "我",
        "会"
      ],
      [
        "提",
        "交"
      ],
      [
        "查",
        "询"
      ],
      [
        "补",
        "开"
      ],
      [
        "货",
        "地址"
      ],
      [
        "还",
        "未"
      ],
      [
        "退",
        "回"
      ],
      [
        "需",
        "要"
      ],
      [
        "如果",
        "订单"
      ],
      [
        "我帮你",
        "核实"
      ],
      [
        "我帮你",
        "确认"
      ],
      [
        "完成",
        "揽件"
      ],
      [
        "把订单号",
        "发给我"
      ],
      [
        "是否已经",
        "出库"
      ],
      [
        "发票抬头",
        "和税号"
      ],
      [
        "仓库",
        "是否已经出库"
      ],
      [
        "待揽",
        "收"
      ],
      [
        "4",
        "8"
      ],
      [
        "一",
        "直"
      ],
      [
        "一",
        "般"
      ],
      [
        "为",
        "你"
      ],
      [
        "什",
        "么"
      ],
      [
        "优",
        "惠"
      ],
      [
        "会",
        "退回"
      ],
      [
        "保",
        "留"
      ],
      [
        "公",
        "司"
      ],
      [
        "再",
        "确认"
      ],
      [
        "到",
        "账"
      ],
      [
        "发",
        "现"
      ],
      [
        "发",
        "货"
      ],
      [
        "后",
        "发现"
      ],
      [
        "小",
        "时"
      ],
      [
        "少",
        "件"
      ],
      [
        "尚",
        "未"
      ],
      [
        "开",
        "票"
      ],
      [
        "我",
        "订单号"
      ],
      [
        "显",
        "示"
      ],
      [
        "核",
        "查"
      ],
      [
        "没",
        "有"
      ],
      [
        "流",
        "程"
      ],
      [
        "直",
        "接"
      ],
      [
        "继",
        "续"
      ],
      [
        "超",
        "过"
      ],
      [
        "还",
        "能"
      ],
      [
        "退",
        "货地址"
      ],
      [
        "错",
        "了"
      ],
      [
        "问",
        "题"
      ],
      [
        "订单",
        "待揽收"
      ],
      [
        "可以",
        "补开"
      ],
      [
        "帮你",
        "查询"
      ],
      [
        "如果",
        "已"
      ],
      [
        "如果",
        "需要"
      ],
      [
        "是否",
        "完成揽件"
      ],
      [
        "发票",
        "吗"
      ],
      [
        "已经",
        "开"
      ],
      [
        "快递",
        "是否完成揽件"
      ],
      [
        "我可以",
        "帮你"
      ],
      [
        "我可以",
        "继续"
      ],
      [
        "申请",
        "退款"
      ],
      [
        "签收",
        "后发现"
      ],
      [
        "告诉",
        "你"
      ],
      [
        "告诉",
        "我订单号"
      ],
      [
        "请先核实",
        "仓库是否已经出库"
      ],
      [
        "如果订单",
        "还未"
      ],
      [
        "我帮你核实",
        "是否"
      ],
      [
        "优惠",
        "券"
      ],
      [
        "保留",
        "商品"
      ],
      [
        "再确认",
        "快递是否完成揽件"
      ],
      [
        "小时",
        "怎么办"
      ],
      [
        "订单待揽收",
        "超过"
      ],
      [
        "我可以继续",
        "帮你查询"
      ],
      [
        "一",
        "步"
      ],
      [
        "不",
        "及"
      ],
      [
        "不",
        "能"
      ],
      [
        "不",
        "要"
      ],
      [
        "中",
        "转"
      ],
      [
        "为",
        "什么"
      ],
      [
        "久",
        "能"
      ],
      [
        "买",
        "错了"
      ],
      [
        "于",
        "支"
      ],
      [
        "仍",
        "未"
      ],
      [
        "付",
        "渠"
      ],
      [
        "代",
        "收"
      ],
      [
        "会",
        "按"
      ],
      [
        "传",
        "不及"
      ],
      [
        "但",
        "我"
      ],
      [
        "你",
        "可以"
      ],
      [
        "候",
        "能"
      ],
      [
        "先",
        "帮你"
      ],
      [
        "先",
        "把订单号发给我"
      ],
      [
        "具",
        "完成"
      ],
      [
        "决",
        "于支"
      ],
      [
        "则",
        "处理"
      ],
      [
        "动",
        "规"
      ],
      [
        "包",
        "装"
      ],
      [
        "包",
        "裹"
      ],
      [
        "发",
        "起"
      ],
      [
        "取",
        "消"
      ],
      [
        "取",
        "决于支"
      ],
      [
        "变",
        "更"
      ],
      [
        "可",
        "能"
      ],
      [
        "合",
        "补开"
      ],
      [
        "后",
        "多"
      ],
      [
        "后",
        "尽"
      ],
      [
        "后",
        "处理"
      ],
      [
        "和",
        "签收"
      ],
      [
        "和",
        "流程"
      ],
      [
        "和",
        "问题"
      ],
      [
        "和",
        "优惠券"
      ],
      [
        "和",
        "代收"
      ],
      [
        "和",
        "包装"
      ],
      [
        "哪",
        "里"
      ],
      [
        "售",
        "后处理"
      ],
      [
        "回",
        "传不及"
      ],
      [
        "在",
        "信息"
      ],
      [
        "在",
        "哪里"
      ],
      [
        "填",
        "错了"
      ],
      [
        "审",
        "核"
      ],
      [
        "寄",
        "回"
      ],
      [
        "尝",
        "试"
      ],
      [
        "已",
        "签收"
      ],
      [
        "并",
        "拍"
      ],
      [
        "并",
        "把订单号"
      ],
      [
        "延",
        "迟"
      ],
      [
        "开",
        "好"
      ],
      [
        "开",
        "发票吗"
      ],
      [
        "快",
        "处理"
      ],
      [
        "态",
        "告诉你"
      ],
      [
        "成",
        "公司"
      ],
      [
        "我",
        "的"
      ],
      [
        "我",
        "先帮你"
      ],
      [
        "或",
        "物流"
      ],
      [
        "找",
        "到"
      ],
      [
        "把",
        "公司"
      ],
      [
        "据",
        "订单"
      ],
      [
        "收",
        "到"
      ],
      [
        "收",
        "货地址"
      ],
      [
        "改",
        "成公司"
      ],
      [
        "数",
        "量"
      ],
      [
        "方",
        "式"
      ],
      [
        "时",
        "间"
      ],
      [
        "时",
        "候能"
      ],
      [
        "是",
        "快递"
      ],
      [
        "更",
        "新"
      ],
      [
        "有",
        "问题"
      ],
      [
        "条",
        "件"
      ],
      [
        "柜",
        "和代收"
      ],
      [
        "根",
        "据订单"
      ],
      [
        "正",
        "确"
      ],
      [
        "活",
        "动规"
      ],
      [
        "点",
        "信息"
      ],
      [
        "照",
        "片"
      ],
      [
        "照",
        "保留商品"
      ],
      [
        "状",
        "态告诉你"
      ],
      [
        "登",
        "记"
      ],
      [
        "的",
        "退货地址"
      ],
      [
        "示",
        "快递"
      ],
      [
        "票",
        "了"
      ],
      [
        "符",
        "合补开"
      ],
      [
        "类",
        "型"
      ],
      [
        "系",
        "物流"
      ],
      [
        "联",
        "系物流"
      ],
      [
        "自",
        "行"
      ],
      [
        "表",
        "示快递"
      ],
      [
        "记",
        "录"
      ],
      [
        "请",
        "把订单号发给我"
      ],
      [
        "请",
        "告诉我订单号"
      ],
      [
        "请",
        "把公司"
      ],
      [
        "账",
        "户"
      ],
      [
        "货",
        "退款"
      ],
      [
        "输",
        "中转"
      ],
      [
        "过",
        "票了"
      ],
      [
        "运",
        "输中转"
      ],
      [
        "这",
        "通常"
      ],
      [
        "这",
        "可能"
      ],
      [
        "进",
        "度"
      ],
      [
        "进",
        "一步"
      ],
      [
        "退",
        "货退款"
      ],
      [
        "通",
        "过"
      ],
      [
        "重",
        "开"
      ],
      [
        "订单",
        "一直"
      ],
      [
        "订单",
        "显示"
      ],
      [
        "订单",
        "取消"
      ],
      [
        "可以",
        "修改"
      ],
      [
        "可以",
        "直接"
      ],
      [
        "可以",
        "开发票吗"
      ],
      [
        "可以",
        "改成公司"
      ],
      [
        "如果",
        "发票"
      ],
      [
        "如果",
        "仍未"
      ],
      [
        "是否",
        "符合补开"
      ],
      [
        "请先",
        "提供订单号"
      ],
      [
        "请先",
        "申请"
      ],
      [
        "请先",
        "告诉我订单号"
      ],
      [
        "请先",
        "保留商品"
      ],
      [
        "请先",
        "不要"
      ],
      [
        "发票",
        "什么"
      ],
      [
        "怎么",
        "申请退款"
      ],
      [
        "我帮你",
        "提交"
      ],
      [
        "我帮你",
        "进一步"
      ],
      [
        "确认",
        "完成"
      ],
      [
        "确认",
        "退款"
      ],
      [
        "抬头",
        "吗"
      ],
      [
        "抬头",
        "和税号"
      ],
      [
        "快递",
        "柜和代收"
      ],
      [
        "我可以",
        "为你"
      ],
      [
        "申请",
        "提交"
      ],
      [
        "签收",
        "人"
      ],
      [
        "退款",
        "申请提交"
      ],
      [
        "修改",
        "抬头吗"
      ],
      [
        "商品",
        "买错了"
      ],
      [
        "商品",
        "有问题"
      ],
      [
        "物流",
        "一直"
      ],
      [
        "物流",
        "核查"
      ],
      [
        "通常",
        "不能"
      ],
      [
        "通常",
        "会按"
      ],
      [
        "通常",
        "取决于支"
      ],
      [
        "是否已经",
        "审核"
      ],
      [
        "请先核实",
        "包裹"
      ],
      [
        "请先核实",
        "签收人"
      ],
      [
        "发票抬头",
        "可以改成公司"
      ],
      [
        "我会",
        "为你"
      ],
      [
        "我会",
        "告诉你"
      ],
      [
        "我会",
        "根据订单"
      ],
      [
        "提交",
        "开票"
      ],
      [
        "还未",
        "完成揽件"
      ],
      [
        "退回",
        "流程"
      ],
      [
        "需要",
        "联系物流"
      ],
      [
        "如果订单",
        "尚未"
      ],
      [
        "我帮你核实",
        "进度"
      ],
      [
        "我帮你确认",
        "仓库是否已经出库"
      ],
      [
        "我帮你确认",
        "售后处理"
      ],
      [
        "我帮你确认",
        "是否符合补开"
      ],
      [
        "待揽收",
        "怎么办"
      ],
      [
        "一般",
        "可以补开"
      ],
      [
        "一般",
        "在信息"
      ],
      [
        "会退回",
        "吗"
      ],
      [
        "会退回",
        "账户"
      ],
      [
        "到账",
        "时间"
      ],
      [
        "少件",
        "怎么办"
      ],
      [
        "少件",
        "核查"
      ],
      [
        "尚未",
        "揽件"
      ],
      [
        "显示",
        "待揽收怎么办"
      ],
      [
        "没有",
        "收到"
      ],
      [
        "没有",
        "更新"
      ],
      [
        "直接",
        "修改"
      ],
      [
        "还能",
        "重开"
      ],
      [
        "还能",
        "修改抬头吗"
      ],
      [
        "退货地址",
        "在哪里"
      ],
      [
        "可以补开",
        "发票吗"
      ],
      [
        "如果已",
        "出库"
      ],
      [
        "如果已",
        "发货"
      ],
      [
        "已经开",
        "具完成"
      ],
      [
        "已经开",
        "过票了"
      ],
      [
        "我可以帮你",
        "尝试"
      ],
      [
        "我可以帮你",
        "登记"
      ],
      [
        "签收后发现",
        "商品有问题"
      ],
      [
        "签收后发现",
        "少件怎么办"
      ],
      [
        "如果订单还未",
        "出库"
      ],
      [
        "如果订单还未",
        "发货"
      ],
      [
        "我帮你核实是否",
        "会退回账户"
      ],
      [
        "我帮你核实是否",
        "还能重开"
      ],
      [
        "优惠券",
        "会退回吗"
      ],
      [
        "为什么",
        "物流一直"
      ],
      [
        "久能",
        "到账"
      ],
      [
        "付渠",
        "道"
      ],
      [
        "但我",
        "没有收到"
      ],
      [
        "你可以",
        "先把订单号发给我"
      ],
      [
        "发起",
        "物流核查"
      ],
      [
        "后多",
        "久能到账"
      ],
      [
        "后尽",
        "快处理"
      ],
      [
        "和签收",
        "记录"
      ],
      [
        "和问题",
        "照片"
      ],
      [
        "和优惠券",
        "类型"
      ],
      [
        "回传不及",
        "时"
      ],
      [
        "填错了",
        "怎么办"
      ],
      [
        "已签收",
        "但我没有收到"
      ],
      [
        "并拍",
        "照保留商品"
      ],
      [
        "并把订单号",
        "和问题照片"
      ],
      [
        "我的",
        "订单一直"
      ],
      [
        "我先帮你",
        "确认退款"
      ],
      [
        "或物流",
        "回传不及时"
      ],
      [
        "收货地址",
        "填错了怎么办"
      ],
      [
        "数量",
        "和签收记录"
      ],
      [
        "时候能",
        "开好"
      ],
      [
        "是快递",
        "尚未揽件"
      ],
      [
        "正确",
        "的退货地址"
      ],
      [
        "活动规",
        "则处理"
      ],
      [
        "状态告诉你",
        "正确的退货地址"
      ],
      [
        "自行",
        "寄回"
      ],
      [
        "表示快递",
        "还未完成揽件"
      ],
      [
        "请告诉我订单号",
        "和优惠券类型"
      ],
      [
        "请把公司",
        "抬头和税号"
      ],
      [
        "运输中转",
        "延迟"
      ],
      [
        "这通常",
        "表示快递还未完成揽件"
      ],
      [
        "这可能",
        "是快递尚未揽件"
      ],
      [
        "订单显示",
        "已签收但我没有收到"
      ],
      [
        "订单取消",
        "后"
      ],
      [
        "可以直接",
        "申请退款"
      ],
      [
        "如果发票",
        "已经开具完成"
      ],
      [
        "如果仍未",
        "找到"
      ],
      [
        "请先申请",
        "退货退款"
      ],
      [
        "请先保留商品",
        "和包装"
      ],
      [
        "请先不要",
        "自行寄回"
      ],
      [
        "发票什么",
        "时候能开好"
      ],
      [
        "我帮你提交",
        "变更"
      ],
      [
        "我帮你进一步",
        "查询"
      ],
      [
        "确认完成",
        "后尽快处理"
      ],
      [
        "快递柜和代收",
        "点信息"
      ],
      [
        "我可以为你",
        "发起物流核查"
      ],
      [
        "退款申请提交",
        "后多久能到账"
      ],
      [
        "通常不能",
        "直接修改"
      ],
      [
        "通常会按",
        "活动规则处理"
      ],
      [
        "通常取决于支",
        "付渠道"
      ],
      [
        "是否已经审核",
        "通过"
      ],
      [
        "请先核实包裹",
        "数量和签收记录"
      ],
      [
        "发票抬头可以改成公司",
        "吗"
      ],
      [
        "我会为你",
        "提交开票"
      ],
      [
        "我会告诉你",
        "退回流程"
      ],
      [
        "我会根据订单",
        "状态告诉你正确的退货地址"
      ],
      [
        "需要联系物流",
        "处理"
      ],
      [
        "如果订单尚未",
        "开票"
      ],
      [
        "我帮你确认售后处理",
        "方式"
      ],
      [
        "我帮你确认是否符合补开",
        "条件"
      ],
      [
        "一般在信息",
        "确认完成后尽快处理"
      ],
      [
        "到账时间",
        "通常取决于支付渠道"
      ],
      [
        "退货地址在哪里",
        "看"
      ],
      [
        "我可以帮你尝试",
        "修改"
      ],
      [
        "我可以帮你登记",
        "少件核查"
      ],
      [
        "签收后发现商品有问题",
        "怎么办"
      ],
      [
        "为什么物流一直",
        "没有更新"
      ],
      [
        "并拍照保留商品",
        "信息"
      ],
      [
        "并把订单号和问题照片",
        "发给我"
      ],
      [
        "我的订单一直",
        "显示待揽收怎么办"
      ],
      [
        "我先帮你确认退款",
        "是否已经审核通过"
      ],
      [
        "请把公司抬头和税号",
        "发给我"
      ],
      [
        "我会为你提交开票",
        "申请"
      ],
      [
        "我会根据订单状态告诉你正确的退货地址",
        "和流程"
      ]
    ]
  }
}